<pad>	0
<unk>	0
<hangul>	0
<0x00>	0
<0x01>	0
<0x02>	0
<0x03>	0
<0x04>	0
<0x05>	0
<0x06>	0
<0x07>	0
<0x08>	0
<0x09>	0
<0x0A>	0
<0x0B>	0
<0x0C>	0
<0x0D>	0
<0x0E>	0
<0x0F>	0
<0x10>	0
<0x11>	0
<0x12>	0
<0x13>	0
<0x14>	0
<0x15>	0
<0x16>	0
<0x17>	0
<0x18>	0
<0x19>	0
<0x1A>	0
<0x1B>	0
<0x1C>	0
<0x1D>	0
<0x1E>	0
<0x1F>	0
<0x20>	0
<0x21>	0
<0x22>	0
<0x23>	0
<0x24>	0
<0x25>	0
<0x26>	0
<0x27>	0
<0x28>	0
<0x29>	0
<0x2A>	0
<0x2B>	0
<0x2C>	0
<0x2D>	0
<0x2E>	0
<0x2F>	0
<0x30>	0
<0x31>	0
<0x32>	0
<0x33>	0
<0x34>	0
<0x35>	0
<0x36>	0
<0x37>	0
<0x38>	0
<0x39>	0
<0x3A>	0
<0x3B>	0
<0x3C>	0
<0x3D>	0
<0x3E>	0
<0x3F>	0
<0x40>	0
<0x41>	0
<0x42>	0
<0x43>	0
<0x44>	0
<0x45>	0
<0x46>	0
<0x47>	0
<0x48>	0
<0x49>	0
<0x4A>	0
<0x4B>	0
<0x4C>	0
<0x4D>	0
<0x4E>	0
<0x4F>	0
<0x50>	0
<0x51>	0
<0x52>	0
<0x53>	0
<0x54>	0
<0x55>	0
<0x56>	0
<0x57>	0
<0x58>	0
<0x59>	0
<0x5A>	0
<0x5B>	0
<0x5C>	0
<0x5D>	0
<0x5E>	0
<0x5F>	0
<0x60>	0
<0x61>	0
<0x62>	0
<0x63>	0
<0x64>	0
<0x65>	0
<0x66>	0
<0x67>	0
<0x68>	0
<0x69>	0
<0x6A>	0
<0x6B>	0
<0x6C>	0
<0x6D>	0
<0x6E>	0
<0x6F>	0
<0x70>	0
<0x71>	0
<0x72>	0
<0x73>	0
<0x74>	0
<0x75>	0
<0x76>	0
<0x77>	0
<0x78>	0
<0x79>	0
<0x7A>	0
<0x7B>	0
<0x7C>	0
<0x7D>	0
<0x7E>	0
<0x7F>	0
<0x80>	0
<0x81>	0
<0x82>	0
<0x83>	0
<0x84>	0
<0x85>	0
<0x86>	0
<0x87>	0
<0x88>	0
<0x89>	0
<0x8A>	0
<0x8B>	0
<0x8C>	0
<0x8D>	0
<0x8E>	0
<0x8F>	0
<0x90>	0
<0x91>	0
<0x92>	0
<0x93>	0
<0x94>	0
<0x95>	0
<0x96>	0
<0x97>	0
<0x98>	0
<0x99>	0
<0x9A>	0
<0x9B>	0
<0x9C>	0
<0x9D>	0
<0x9E>	0
<0x9F>	0
<0xA0>	0
<0xA1>	0
<0xA2>	0
<0xA3>	0
<0xA4>	0
<0xA5>	0
<0xA6>	0
<0xA7>	0
<0xA8>	0
<0xA9>	0
<0xAA>	0
<0xAB>	0
<0xAC>	0
<0xAD>	0
<0xAE>	0
<0xAF>	0
<0xB0>	0
<0xB1>	0
<0xB2>	0
<0xB3>	0
<0xB4>	0
<0xB5>	0
<0xB6>	0
<0xB7>	0
<0xB8>	0
<0xB9>	0
<0xBA>	0
<0xBB>	0
<0xBC>	0
<0xBD>	0
<0xBE>	0
<0xBF>	0
<0xC0>	0
<0xC1>	0
<0xC2>	0
<0xC3>	0
<0xC4>	0
<0xC5>	0
<0xC6>	0
<0xC7>	0
<0xC8>	0
<0xC9>	0
<0xCA>	0
<0xCB>	0
<0xCC>	0
<0xCD>	0
<0xCE>	0
<0xCF>	0
<0xD0>	0
<0xD1>	0
<0xD2>	0
<0xD3>	0
<0xD4>	0
<0xD5>	0
<0xD6>	0
<0xD7>	0
<0xD8>	0
<0xD9>	0
<0xDA>	0
<0xDB>	0
<0xDC>	0
<0xDD>	0
<0xDE>	0
<0xDF>	0
<0xE0>	0
<0xE1>	0
<0xE2>	0
<0xE3>	0
<0xE4>	0
<0xE5>	0
<0xE6>	0
<0xE7>	0
<0xE8>	0
<0xE9>	0
<0xEA>	0
<0xEB>	0
<0xEC>	0
<0xED>	0
<0xEE>	0
<0xEF>	0
<0xF0>	0
<0xF1>	0
<0xF2>	0
<0xF3>	0
<0xF4>	0
<0xF5>	0
<0xF6>	0
<0xF7>	0
<0xF8>	0
<0xF9>	0
<0xFA>	0
<0xFB>	0
<0xFC>	0
<0xFD>	0
<0xFE>	0
<0xFF>	0
▁t	-0
he	-1
▁a	-2
ou	-3
in	-4
re	-5
▁w	-6
▁s	-7
▁the	-8
ha	-9
on	-10
▁y	-11
▁you	-12
▁m	-13
er	-14
▁b	-15
is	-16
ll	-17
it	-18
▁d	-19
nd	-20
..	-21
ing	-22
▁c	-23
▁f	-24
or	-25
▁to	-26
▁g	-27
ve	-28
an	-29
hat	-30
▁o	-31
▁n	-32
▁I	-33
ed	-34
es	-35
▁l	-36
▁p	-37
en	-38
om	-39
ow	-40
ot	-41
ar	-42
at	-43
▁of	-44
et	-45
st	-46
▁in	-47
ay	-48
▁and	-49
▁he	-50
▁th	-51
▁ha	-52
▁be	-53
...	-54
le	-55
▁h	-56
▁it	-57
se	-58
▁is	-59
id	-60
▁that	-61
▁on	-62
gh	-63
▁u	-64
▁e	-65
▁k	-66
ic	-67
▁me	-68
ld	-69
as	-70
ut	-71
You	-72
▁we	-73
al	-74
ver	-75
im	-76
▁re	-77
▁for	-78
ac	-79
ght	-80
ke	-81
oo	-82
▁do	-83
ri	-84
The	-85
ion	-86
ill	-87
▁not	-88
▁A	-89
out	-90
ad	-91
▁1	-92
We	-93
ly	-94
am	-95
ir	-96
▁have	-97
▁st	-98
ith	-99
ent	-100
▁<	-101
▁your	-102
▁wh	-103
▁S	-104
He	-105
ome	-106
▁an	-107
▁kn	-108
if	-109
ust	-110
▁this	-111
ur	-112
▁with	-113
▁are	-114
▁M	-115
▁know	-116
▁was	-117
ould	-118
ro	-119
▁my	-120
all	-121
her	-122
ee	-123
▁j	-124
ec	-125
▁go	-126
ah	-127
▁li	-128
▁2	-129
ant	-130
▁ne	-131
▁can	-132
▁-	-133
▁they	-134
▁C	-135
▁what	-136
▁T	-137
ter	-138
op	-139
▁don	-140
ce	-141
▁G	-142
▁them	-143
ie	-144
▁will	-145
And	-146
▁as	-147
▁D	-148
ch	-149
ra	-150
▁W	-151
il	-152
▁all	-153
▁L	-154
▁who	-155
od	-156
un	-157
hing	-158
rom	-159
▁ab	-160
ore	-161
ess	-162
▁just	-163
It	-164
ake	-165
▁up	-166
▁sh	-167
▁H	-168
▁get	-169
▁out	-170
▁him	-171
▁(	-172
▁B	-173
ive	-174
▁so	-175
ge	-176
pp	-177
ry	-178
our	-179
▁O	-180
right	-181
No	-182
▁at	-183
ood	-184
ight	-185
one	-186
▁here	-187
▁there	-188
ck	-189
art	-190
ook	-191
▁like	-192
ack	-193
ain	-194
▁su	-195
and	-196
▁P	-197
▁whe	-198
au	-199
han	-200
▁right	-201
▁wor	-202
▁from	-203
ind	-204
▁no	-205
▁want	-206
ink	-207
▁did	-208
▁"	-209
▁but	-210
▁about	-211
est	-212
▁her	-213
▁sa	-214
nt	-215
na	-216
▁'	-217
▁us	-218
very	-219
▁de	-220
ct	-221
▁He	-222
ell	-223
ul	-224
▁one	-225
us	-226
ab	-227
00	-228
ose	-229
ong	-230
What	-231
PS	-232
ig	-233
ation	-234
▁if	-235
ers	-236
os	-237
ist	-238
ast	-239
▁got	-240
ame	-241
▁or	-242
▁any	-243
▁All	-244
ate	-245
▁F	-246
ak	-247
▁We	-248
ally	-249
▁al	-250
▁r	-251
um	-252
▁ex	-253
ol	-254
▁3	-255
▁You	-256
▁think	-257
▁see	-258
▁con	-259
▁com	-260
kay	-261
▁le	-262
ard	-263
▁his	-264
▁she	-265
em	-266
ove	-267
el	-268
▁say	-269
eah	-270
red	-271
onna	-272
▁need	-273
▁R	-274
ime	-275
▁gonna	-276
▁some	-277
▁their	-278
▁would	-279
QT	-280
his	-281
rou	-282
own	-283
▁when	-284
▁were	-285
▁Allah	-286
ect	-287
res	-288
▁man	-289
qu	-290
end	-291
▁back	-292
▁pl	-293
ine	-294
▁now	-295
That	-296
ord	-297
▁gu	-298
ave	-299
▁J	-300
▁sp	-301
pt	-302
They	-303
▁has	-304
▁v	-305
ide	-306
ear	-307
▁N	-308
▁pro	-309
▁good	-310
▁tr	-311
But	-312
ase	-313
eop	-314
▁E	-315
Yeah	-316
ause	-317
eople	-318
ous	-319
ort	-320
Oh	-321
▁by	-322
So	-323
▁been	-324
way	-325
▁time	-326
ice	-327
ost	-328
▁K	-329
▁thing	-330
reat	-331
▁had	-332
ace	-333
are	-334
▁am	-335
ure	-336
alk	-337
▁those	-338
▁ag	-339
▁said	-340
▁4	-341
▁look	-342
▁♪	-343
ity	-344
▁people	-345
ick	-346
uck	-347
▁our	-348
▁could	-349
Wh	-350
other	-351
▁God	-352
ment	-353
▁going	-354
th	-355
▁5	-356
▁down	-357
▁bel	-358
ag	-359
urn	-360
itt	-361
▁every	-362
▁then	-363
omet	-364
OG	-365
▁off	-366
▁come	-367
ven	-368
This	-369
DT	-370
▁int	-371
thing	-372
ich	-373
▁se	-374
▁too	-375
sel	-376
Well	-377
▁way	-378
ff	-379
▁should	-380
▁take	-381
sp	-382
ble	-383
▁The	-384
ife	-385
▁over	-386
ving	-387
ther	-388
▁sha	-389
▁mean	-390
▁how	-391
▁cl	-392
▁tell	-393
▁day	-394
ies	-395
She	-396
▁call	-397
▁work	-398
ber	-399
▁It	-400
▁make	-401
ile	-402
omething	-403
ire	-404
▁bl	-405
ud	-406
▁than	-407
fore	-408
▁more	-409
▁give	-410
▁ch	-411
▁belie	-412
age	-413
▁dis	-414
▁let	-415
pl	-416
▁U	-417
▁20	-418
▁happ	-419
lp	-420
▁didn	-421
be	-422
▁en	-423
▁only	-424
▁bec	-425
▁[	-426
LC	-427
▁talk	-428
▁does	-429
ip	-430
."	-431
▁something	-432
ound	-433
If	-434
▁un	-435
▁pr	-436
▁No	-437
ue	-438
▁Lord	-439
▁bet	-440
▁sc	-441
▁thou	-442
▁br	-443
lease	-444
act	-445
ap	-446
▁never	-447
here	-448
▁What	-449
ass	-450
▁other	-451
▁love	-452
▁19	-453
fter	-454
▁may	-455
▁again	-456
▁really	-457
▁tw	-458
ittle	-459
ree	-460
ade	-461
ish	-462
ys	-463
ew	-464
old	-465
ait	-466
Do	-467
eep	-468
▁help	-469
▁which	-470
▁And	-471
orry	-472
There	-473
▁‘	-474
▁before	-475
▁qu	-476
nder	-477
iss	-478
▁little	-479
20	-480
ger	-481
ody	-482
How	-483
▁wr	-484
ite	-485
ise	-486
ond	-487
iz	-488
▁ar	-489
--	-490
▁into	-491
ather	-492
▁10	-493
▁believe	-494
▁where	-495
ever	-496
ob	-497
per	-498
19	-499
▁kill	-500
▁Y	-501
ting	-502
▁6	-503
hen	-504
▁sure	-505
ign	-506
All	-507
self	-508
▁okay	-509
▁pre	-510
Okay	-511
▁even	-512
ady	-513
uch	-514
we	-515
ning	-516
▁find	-517
oll	-518
▁life	-519
ily	-520
ress	-521
▁rem	-522
▁bo	-523
ful	-524
▁two	-525
▁happen	-526
oc	-527
ep	-528
▁ro	-529
ach	-530
get	-531
▁doing	-532
wn	-533
ull	-534
▁shall	-535
▁im	-536
ath	-537
▁“	-538
ne	-539
ance	-540
vers	-541
eel	-542
Hey	-543
irst	-544
able	-545
riend	-546
▁ask	-547
▁under	-548
ction	-549
▁hand	-550
▁because	-551
ock	-552
cc	-553
ild	-554
▁made	-555
ere	-556
▁7	-557
▁V	-558
▁away	-559
▁much	-560
ious	-561
ans	-562
ty	-563
),	-564
▁ad	-565
▁after	-566
ia	-567
ount	-568
ail	-569
▁8	-570
My	-571
▁very	-572
▁why	-573
▁try	-574
ft	-575
▁year	-576
▁new	-577
▁Oh	-578
eed	-579
▁sur	-580
▁still	-581
▁feel	-582
round	-583
og	-584
▁Wh	-585
▁St	-586
ves	-587
row	-588
▁part	-589
ny	-590
ru	-591
▁cont	-592
sh	-593
▁sorry	-594
ks	-595
hed	-596
▁things	-597
body	-598
Why	-599
ory	-600
orm	-601
so	-602
oin	-603
▁name	-604
▁long	-605
▁first	-606
irl	-607
▁these	-608
pen	-609
▁chan	-610
▁9	-611
ary	-612
▁night	-613
▁sec	-614
▁fl	-615
Don	-616
xt	-617
aking	-618
▁well	-619
▁anything	-620
▁That	-621
▁cha	-622
▁unt	-623
▁keep	-624
ark	-625
Is	-626
▁fuck	-627
▁thought	-628
St	-629
day	-630
▁friend	-631
▁put	-632
▁per	-633
▁home	-634
▁turn	-635
av	-636
▁great	-637
mm	-638
ness	-639
▁rec	-640
▁better	-641
oss	-642
Let	-643
ied	-644
atch	-645
ool	-646
ough	-647
Not	-648
▁<1	-649
ated	-650
▁kid	-651
ions	-652
Now	-653
▁start	-654
ater	-655
▁app	-656
ence	-657
▁girl	-658
▁wrong	-659
Come	-660
▁told	-661
▁last	-662
▁te	-663
▁ever	-664
In	-665
▁act	-666
▁wait	-667
▁des	-668
▁own	-669
▁ser	-670
▁world	-671
ons	-672
▁ass	-673
▁fun	-674
uth	-675
ways	-676
▁har	-677
ren	-678
Look	-679
▁ret	-680
()	-681
Just	-682
ang	-683
▁Yeah	-684
▁stop	-685
ict	-686
ial	-687
IN	-688
ient	-689
▁cle	-690
bsp	-691
Yes	-692
up	-693
▁kind	-694
▁comm	-695
▁set	-696
Who	-697
▁che	-698
▁place	-699
oney	-700
les	-701
When	-702
▁show	-703
rough	-704
cept	-705
▁car	-706
▁must	-707
▁Ch	-708
ings	-709
▁leave	-710
oth	-711
ouse	-712
ried	-713
ert	-714
▁hear	-715
▁supp	-716
▁won	-717
▁sm	-718
arth	-719
▁nothing	-720
igh	-721
ember	-722
▁everything	-723
▁done	-724
▁wom	-725
ors	-726
▁dec	-727
ward	-728
▁might	-729
▁years	-730
▁please	-731
▁200	-732
elie	-733
▁always	-734
▁care	-735
ollow	-736
▁through	-737
▁doesn	-738
▁around	-739
ple	-740
▁His	-741
Are	-742
ub	-743
Then	-744
ike	-745
▁str	-746
▁dr	-747
ved	-748
stand	-749
ute	-750
▁fam	-751
▁best	-752
ually	-753
▁guy	-754
rain	-755
▁201	-756
▁She	-757
▁came	-758
▁heart	-759
▁father	-760
ian	-761
▁uh	-762
▁real	-763
▁ind	-764
▁bu	-765
▁12	-766
▁left	-767
isten	-768
▁They	-769
▁sign	-770
▁run	-771
▁guys	-772
ix	-773
Th	-774
▁head	-775
▁stay	-776
the	-777
▁min	-778
atter	-779
ens	-780
▁lot	-781
iff	-782
iv	-783
Your	-784
hank	-785
▁But	-786
ower	-787
▁end	-788
▁bad	-789
ts	-790
▁comp	-791
▁war	-792
▁old	-793
▁sent	-794
▁11	-795
▁dead	-796
▁being	-797
Where	-798
▁another	-799
▁res	-800
▁play	-801
▁hell	-802
▁understand	-803
ations	-804
▁acc	-805
▁el	-806
▁used	-807
▁So	-808
▁men	-809
▁att	-810
cy	-811
▁coming	-812
▁bab	-813
oy	-814
▁found	-815
side	-816
▁rep	-817
▁earth	-818
aught	-819
▁sw	-820
▁cour	-821
ng	-822
akes	-823
▁This	-824
hes	-825
ner	-826
ered	-827
▁mom	-828
ont	-829
vel	-830
▁Him	-831
▁return	-832
▁cr	-833
belie	-834
▁Mr	-835
▁sin	-836
▁sl	-837
▁big	-838
▁follow	-839
aw	-840
▁most	-841
air	-842
oint	-843
▁ph	-844
man	-845
▁inf	-846
▁ev	-847
Did	-848
ject	-849
▁wanted	-850
der	-851
▁bit	-852
TI	-853
oh	-854
▁mon	-855
Can	-856
▁move	-857
▁open	-858
▁imp	-859
ream	-860
▁pers	-861
▁gr	-862
▁fine	-863
ta	-864
▁hat	-865
ns	-866
ating	-867
ib	-868
gether	-869
Uh	-870
ecause	-871
Get	-872
▁…	-873
led	-874
▁use	-875
ope	-876
▁mother	-877
aybe	-878
▁Okay	-879
my	-880
ition	-881
▁trying	-882
ms	-883
▁while	-884
▁else	-885
▁child	-886
ident	-887
▁family	-888
▁talking	-889
▁many	-890
▁upon	-891
▁someone	-892
ible	-893
▁house	-894
▁remember	-895
▁truth	-896
ER	-897
▁together	-898
▁son	-899
▁today	-900
▁bring	-901
▁also	-902
▁ye	-903
▁miss	-904
▁happened	-905
▁Is	-906
▁diff	-907
ph	-908
ars	-909
Sh	-910
eth	-911
▁hard	-912
▁bre	-913
▁em	-914
ank	-915
▁ent	-916
ye	-917
▁Do	-918
▁mar	-919
imes	-920
▁meet	-921
▁sir	-922
▁Hey	-923
ps	-924
ical	-925
▁mess	-926
ult	-927
▁against	-928
▁30	-929
▁same	-930
uh	-931
gg	-932
ray	-933
).	-934
▁enough	-935
▁course	-936
▁plan	-937
▁baby	-938
ready	-939
▁inter	-940
▁15	-941
000	-942
▁rel	-943
oot	-944
▁gl	-945
▁ob	-946
less	-947
selves	-948
For	-949
ret	-950
▁ra	-951
▁die	-952
▁getting	-953
▁word	-954
▁fight	-955
▁person	-956
▁isn	-957
ize	-958
▁/	-959
▁prom	-960
▁saw	-961
▁pat	-962
pe	-963
▁def	-964
▁three	-965
▁already	-966
nbsp	-967
▁job	-968
▁its	-969
▁Th	-970
201	-971
▁<2	-972
▁looking	-973
▁yeah	-974
▁How	-975
▁without	-976
osed	-977
ING	-978
▁inc	-979
ither	-980
▁god	-981
▁Come	-982
▁brother	-983
▁forg	-984
▁until	-985
▁~	-986
▁clear	-987
▁hur	-988
▁co	-989
▁exp	-990
▁room	-991
▁seen	-992
▁boy	-993
▁My	-994
ared	-995
▁wasn	-996
▁yourself	-997
Because	-998
▁mor	-999
ey	-1000
▁saying	-1001
to	-1002
▁Who	-1003
lt	-1004
▁pun	-1005
▁...	-1006
▁pret	-1007
▁live	-1008
rop	-1009
▁creat	-1010
To	-1011
▁conf	-1012
▁rest	-1013
iful	-1014
leep	-1015
▁ide	-1016
▁went	-1017
▁called	-1018
▁next	-1019
▁knew	-1020
ale	-1021
▁mind	-1022
▁matter	-1023
ister	-1024
▁among	-1025
ier	-1026
On	-1027
▁%	-1028
Go	-1029
▁Yes	-1030
Maybe	-1031
▁wee	-1032
az	-1033
▁bus	-1034
▁char	-1035
▁fin	-1036
▁second	-1037
▁cra	-1038
▁num	-1039
▁whole	-1040
As	-1041
▁took	-1042
▁money	-1043
▁yet	-1044
uff	-1045
▁both	-1046
ates	-1047
ween	-1048
▁hour	-1049
Please	-1050
▁spec	-1051
amn	-1052
▁fucking	-1053
▁In	-1054
▁Dr	-1055
AN	-1056
▁fear	-1057
▁knows	-1058
ship	-1059
ertain	-1060
har	-1061
▁prot	-1062
Every	-1063
▁Day	-1064
▁walk	-1065
▁hold	-1066
▁18	-1067
rist	-1068
▁Let	-1069
▁wife	-1070
▁heard	-1071
ax	-1072
▁shit	-1073
▁pass	-1074
▁ter	-1075
▁such	-1076
▁mo	-1077
ised	-1078
ying	-1079
▁hum	-1080
▁each	-1081
▁maybe	-1082
▁ac	-1083
ird	-1084
its	-1085
anna	-1086
uc	-1087
▁whom	-1088
▁]	-1089
Or	-1090
▁--	-1091
10	-1092
▁between	-1093
OU	-1094
▁stand	-1095
▁tra	-1096
▁Q	-1097
▁gra	-1098
▁dad	-1099
▁heave	-1100
▁quest	-1101
▁sk	-1102
▁given	-1103
ss	-1104
mer	-1105
orn	-1106
▁sy	-1107
▁proble	-1108
not	-1109
ably	-1110
vent	-1111
▁nice	-1112
▁fr	-1113
ling	-1114
▁check	-1115
dy	-1116
▁gave	-1117
▁killed	-1118
ode	-1119
▁hands	-1120
▁If	-1121
▁indeed	-1122
Good	-1123
▁dri	-1124
▁few	-1125
ef	-1126
Ex	-1127
▁idea	-1128
HP	-1129
▁ap	-1130
▁gotta	-1131
▁days	-1132
▁face	-1133
See	-1134
use	-1135
▁ready	-1136
▁resp	-1137
att	-1138
ls	-1139
▁TH	-1140
Thank	-1141
ott	-1142
ror	-1143
▁means	-1144
yes	-1145
▁Al	-1146
▁listen	-1147
aut	-1148
▁differe	-1149
▁alone	-1150
ctor	-1151
▁case	-1152
▁count	-1153
▁disbelie	-1154
arn	-1155
ery	-1156
▁cou	-1157
ason	-1158
▁spe	-1159
▁wouldn	-1160
ins	-1161
▁Our	-1162
▁morning	-1163
▁Don	-1164
▁anyone	-1165
▁power	-1166
▁send	-1167
ual	-1168
▁gone	-1169
▁actually	-1170
▁true	-1171
▁poss	-1172
▁saf	-1173
▁There	-1174
▁lost	-1175
of	-1176
▁unto	-1177
▁compl	-1178
▁Well	-1179
ash	-1180
lect	-1181
▁read	-1182
▁woman	-1183
▁death	-1184
▁far	-1185
▁light	-1186
iving	-1187
▁	-1188
e	-1189
t	-1190
o	-1191
a	-1192
n	-1193
i	-1194
s	-1195
h	-1196
r	-1197
.	-1198
l	-1199
d	-1200
u	-1201
y	-1202
m	-1203
,	-1204
g	-1205
w	-1206
c	-1207
f	-1208
p	-1209
b	-1210
'	-1211
k	-1212
I	-1213
?	-1214
v	-1215
-	-1216
T	-1217
A	-1218
S	-1219
W	-1220
!	-1221
H	-1222
1	-1223
Y	-1224
:	-1225
O	-1226
0	-1227
C	-1228
D	-1229
M	-1230
N	-1231
2	-1232
L	-1233
G	-1234
P	-1235
(	-1236
)	-1237
>	-1238
<	-1239
B	-1240
"	-1241
E	-1242
j	-1243
x	-1244
R	-1245
3	-1246
F	-1247
5	-1248
9	-1249
4	-1250
K	-1251
U	-1252
…	-1253
J	-1254
8	-1255
6	-1256
♪	-1257
z	-1258
7	-1259
Q	-1260
;	-1261
q	-1262
·	-1263
]	-1264
[	-1265
V	-1266
%	-1267
_	-1268
’	-1269
‘	-1270
”	-1271
“	-1272
/	-1273
~	-1274
*	-1275
X	-1276
&	-1277
Z	-1278
$	-1279
#	-1280
@	-1281
=	-1282
美	-1283
\	-1284
ㅋ	-1285
北	-1286
–	-1287
中	-1288
《	-1289
》	-1290
朴	-1291
∼	-1292
¶	-1293
日	-1294
}	-1295
{	-1296
+	-1297
ㅠ	-1298
—	-1299
é	-1300
^	-1301
¡	-1302
ㅎ	-1303
靑	-1304
↑	-1305
­	-1306
‎	-1307
英	-1308
與	-1309
▲	-1310
ㅜ	-1311
♬	-1312
㈜	-1313
文	-1314
→	-1315
ㅡ	-1316
ö	-1317
↓	-1318
ㆍ	-1319
韓	-1320
野	-1321
李	-1322
金	-1323
〉	-1324
前	-1325
〈	-1326
í	-1327
△	-1328
大	-1329
獨	-1330
車	-1331
‧	-1332
㎞	-1333
伊	-1334
ü	-1335
á	-1336
`	-1337
銀	-1338
 	-1339
ó	-1340
‭	-1341
♥	-1342
ｍ	-1343
軍	-1344
ñ	-1345
安	-1346
ㄷ	-1347
「	-1348
」	-1349
佛	-1350
․	-1351
㎜	-1352
檢	-1353
社	-1354
弗	-1355
㎡	-1356
年	-1357
南	-1358
新	-1359
國	-1360
王	-1361
企	-1362
â	-1363
è	-1364
ا	-1365
ㅇ	-1366
㎝	-1367
人	-1368
故	-1369
反	-1370
％	-1371
氏	-1372
行	-1373
州	-1374
高	-1375
ل	-1376
Ã	-1377
女	-1378
重	-1379
ä	-1380
♡	-1381
家	-1382
明	-1383
ª	-1384
​	-1385
①	-1386
②	-1387
山	-1388
崔	-1389
役	-1390
東	-1391
	-1392
×	-1393
©	-1394
學	-1395
民	-1396
成	-1397
硏	-1398
子	-1399
鄭	-1400
君	-1401
°	-1402
③	-1403
主	-1404
±	-1405
法	-1406
戰	-1407
黨	-1408
à	-1409
亞	-1410
公	-1411
對	-1412
皇	-1413
£	-1414
田	-1415
⅔	-1416
外	-1417
海	-1418
い	-1419
の	-1420
現	-1421
ن	-1422
ي	-1423
『	-1424
光	-1425
昌	-1426
會	-1427
義	-1428
長	-1429
и	-1430
ㅅ	-1431
㎏	-1432
原	-1433
城	-1434
宗	-1435
道	-1436
』	-1437
一	-1438
和	-1439
親	-1440
ā	-1441
・	-1442
元	-1443
后	-1444
天	-1445
尹	-1446
平	-1447
م	-1448
ㄴ	-1449
仁	-1450
德	-1451
正	-1452
無	-1453
三	-1454
林	-1455
€	-1456
低	-1457
永	-1458
百	-1459
黃	-1460
全	-1461
善	-1462
展	-1463
號	-1464
ã	-1465
∙	-1466
在	-1467
川	-1468
月	-1469
本	-1470
太	-1471
武	-1472
男	-1473
و	-1474
　	-1475
孫	-1476
政	-1477
龍	-1478
○	-1479
な	-1480
宋	-1481
株	-1482
а	-1483
ب	-1484
ع	-1485
た	-1486
基	-1487
慶	-1488
詩	-1489
|	-1490
ℓ	-1491
⅓	-1492
世	-1493
京	-1494
信	-1495
死	-1496
者	-1497
Ö	-1498
α	-1499
か	-1500
し	-1501
ㄱ	-1502
代	-1503
西	-1504
院	-1505
É	-1506
о	-1507
ㅈ	-1508
協	-1509
江	-1510
産	-1511
相	-1512
趙	-1513
د	-1514
ر	-1515
ه	-1516
☎	-1517
先	-1518
吉	-1519
女	-1520
敎	-1521
發	-1522
白	-1523
聖	-1524
¿	-1525
ㅂ	-1526
上	-1527
內	-1528
史	-1529
府	-1530
盧	-1531
稅	-1532
興	-1533
Ä	-1534
ú	-1535
р	-1536
ت	-1537
兆	-1538
委	-1539
島	-1540
梁	-1541
比	-1542
熙	-1543
生	-1544
秋	-1545
ç	-1546
õ	-1547
ㅁ	-1548
事	-1549
俊	-1550
印	-1551
名	-1552
後	-1553
曺	-1554
權	-1555
水	-1556
河	-1557
漢	-1558
門	-1559
非	-1560
＋	-1561
Â	-1562
ø	-1563
н	-1564
♫	-1565
夫	-1566
姜	-1567
時	-1568
氣	-1569
洪	-1570
･	-1571
Á	-1572
е	-1573
‏	-1574
う	-1575
て	-1576
來	-1577
古	-1578
周	-1579
容	-1580
市	-1581
徐	-1582
朝	-1583
眞	-1584
福	-1585
秀	-1586
§	-1587
ô	-1588
ك	-1589
④	-1590
二	-1591
式	-1592
張	-1593
承	-1594
甲	-1595
申	-1596
神	-1597
禹	-1598
雲	-1599
電	-1600
س	-1601
•	-1602
━	-1603
ㄹ	-1604
化	-1605
地	-1606
將	-1607
景	-1608
沈	-1609
治	-1610
石	-1611
萬	-1612
藤	-1613
都	-1614
�	-1615
å	-1616
с	-1617
ة	-1618
ح	-1619
Ⅱ	-1620
さ	-1621
に	-1622
よ	-1623
兵	-1624
族	-1625
校	-1626
洙	-1627
知	-1628
貞	-1629
部	-1630
錫	-1631
陵	-1632
﻿	-1633
ş	-1634
в	-1635
‒	-1636
あ	-1637
ㅏ	-1638
劉	-1639
司	-1640
哲	-1641
團	-1642
孝	-1643
富	-1644
帝	-1645
强	-1646
柳	-1647
源	-1648
羅	-1649
自	-1650
賢	-1651
陽	-1652
風	-1653
金	-1654
	-1655
²	-1656
µ	-1657
℃	-1658
ー	-1659
九	-1660
千	-1661
同	-1662
夏	-1663
多	-1664
妃	-1665
小	-1666
心	-1667
志	-1668
愛	-1669
木	-1670
植	-1671
泰	-1672
玉	-1673
船	-1674
鍾	-1675
順	-1676
ﬂ	-1677
Ð	-1678
ı	-1679
ら	-1680
を	-1681
ㅆ	-1682
不	-1683
使	-1684
價	-1685
合	-1686
吳	-1687
四	-1688
康	-1689
延	-1690
性	-1691
恩	-1692
憲	-1693
放	-1694
村	-1695
榮	-1696
油	-1697
祖	-1698
範	-1699
色	-1700
說	-1701
近	-1702
進	-1703
ｇ	-1704
ë	-1705
。	-1706
こ	-1707
と	-1708
㎾	-1709
健	-1710
勳	-1711
博	-1712
士	-1713
官	-1714
少	-1715
忠	-1716
惠	-1717
方	-1718
星	-1719
春	-1720
根	-1721
樂	-1722
池	-1723
流	-1724
炳	-1725
煥	-1726
空	-1727
聯	-1728
花	-1729
論	-1730
證	-1731
阿	-1732
ê	-1733
š	-1734
к	-1735
л	-1736
る	-1737
之	-1738
乙	-1739
任	-1740
壽	-1741
建	-1742
書	-1743
淑	-1744
濟	-1745
界	-1746
街	-1747
衛	-1748
議	-1749
送	-1750
里	-1751
閔	-1752
雄	-1753
：	-1754
¹	-1755
º	-1756
Ê	-1757
Ó	-1758
û	-1759
т	-1760
↔	-1761
★	-1762
お	-1763
も	-1764
れ	-1765
丁	-1766
下	-1767
令	-1768
作	-1769
利	-1770
命	-1771
宇	-1772
宮	-1773
振	-1774
斗	-1775
智	-1776
業	-1777
機	-1778
毛	-1779
浩	-1780
立	-1781
臣	-1782
許	-1783
鉉	-1784
鎬	-1785
陳	-1786
顯	-1787
駐	-1788
｢	-1789
｣	-1790
	-1791
¢	-1792
Ò	-1793
ο	-1794
ς	-1795
м	-1796
ش	-1797
ـ	-1798
ف	-1799
▶	-1800
え	-1801
だ	-1802
ま	-1803
ム	-1804
ル	-1805
㎥	-1806
侯	-1807
保	-1808
區	-1809
唐	-1810
姬	-1811
寧	-1812
工	-1813
師	-1814
感	-1815
敬	-1816
有	-1817
核	-1818
清	-1819
潘	-1820
澤	-1821
益	-1822
統	-1823
經	-1824
織	-1825
華	-1826
郎	-1827
郡	-1828
鎭	-1829
開	-1830
鮮	-1831
	-1832
Ô	-1833
ß	-1834
æ	-1835
ï	-1836
ć	-1837
Ł	-1838
ŏ	-1839
ι	-1840
ν	-1841
ω	-1842
‐	-1843
※	-1844
≪	-1845
▴	-1846
▵	-1847
き	-1848
く	-1849
っ	-1850
み	-1851
り	-1852
ㅣ	-1853
㏊	-1854
五	-1855
共	-1856
具	-1857
土	-1858
均	-1859
堂	-1860
奎	-1861
宣	-1862
宰	-1863
密	-1864
實	-1865
尼	-1866
局	-1867
崇	-1868
弘	-1869
思	-1870
敏	-1871
朱	-1872
松	-1873
溫	-1874
燮	-1875
獻	-1876
目	-1877
第	-1878
翁	-1879
習	-1880
脫	-1881
葉	-1882
谷	-1883
貴	-1884
逆	-1885
鐵	-1886
防	-1887
香	-1888
馬	-1889
麗	-1890
（	-1891
	-1892
¦	-1893
®	-1894
¯	-1895
³	-1896
¾	-1897
î	-1898
ō	-1899
ί	-1900
ρ	-1901
―	-1902
‥	-1903
′	-1904
⑤	-1905
そ	-1906
ン	-1907
ㅔ	-1908
㎓	-1909
七	-1910
伯	-1911
偉	-1912
儀	-1913
六	-1914
分	-1915
場	-1916
奇	-1917
奉	-1918
始	-1919
嬪	-1920
守	-1921
尙	-1922
從	-1923
御	-1924
應	-1925
昭	-1926
晋	-1927
柱	-1928
案	-1929
桓	-1930
波	-1931
淸	-1932
火	-1933
烈	-1934
玄	-1935
理	-1936
由	-1937
直	-1938
科	-1939
節	-1940
老	-1941
致	-1942
舊	-1943
良	-1944
葛	-1945
豊	-1946
資	-1947
起	-1948
超	-1949
達	-1950
錦	-1951
隆	-1952
革	-1953
鳳	-1954
劉	-1955
李	-1956
～	-1957
¨	-1958
´	-1959
¼	-1960
½	-1961
À	-1962
Å	-1963
ò	-1964
ē	-1965
ő	-1966
Š	-1967
Ž	-1968
η	-1969
μ	-1970
у	-1971
ц	-1972
‪	-1973
Ⅲ	-1974
≫	-1975
●	-1976
す	-1977
ち	-1978
つ	-1979
で	-1980
は	-1981
ん	-1982
ゴ	-1983
㎍	-1984
㎢	-1985
介	-1986
佐	-1987
佑	-1988
修	-1989
倍	-1990
八	-1991
初	-1992
勇	-1993
商	-1994
圭	-1995
報	-1996
完	-1997
寺	-1998
廳	-1999
彦	-2000
恭	-2001
我	-2002
所	-2003
技	-2004
楊	-2005
沙	-2006
泳	-2007
派	-2008
浦	-2009
浪	-2010
港	-2011
湖	-2012
父	-2013
珍	-2014
甫	-2015
省	-2016
碩	-2017
私	-2018
竹	-2019
線	-2020
縣	-2021
臺	-2022
見	-2023
誠	-2024
路	-2025
載	-2026
郭	-2027
酒	-2028
集	-2029
館	-2030
＆	-2031
）	-2032
Ì	-2033
Õ	-2034
Ú	-2035
č	-2036
ţ	-2037
τ	-2038
Д	-2039
С	-2040
г	-2041
й	-2042
ч	-2043
ص	-2044
ض	-2045
ی	-2046
Ⅰ	-2047
⑥	-2048
⑪	-2049
♩	-2050
が	-2051
ど	-2052
わ	-2053
ス	-2054
ッ	-2055
ㅊ	-2056
㎖	-2057
井	-2058
亨	-2059
亮	-2060
今	-2061
仙	-2062
会	-2063
兄	-2064
克	-2065
兒	-2066
出	-2067
別	-2068
制	-2069
力	-2070
十	-2071
台	-2072
右	-2073
品	-2074
喜	-2075
園	-2076
定	-2077
宜	-2078
寶	-2079
帶	-2080
弐	-2081
復	-2082
情	-2083
愼	-2084
慈	-2085
懿	-2086
支	-2087
改	-2088
最	-2089
未	-2090
杜	-2091
果	-2092
桂	-2093
樹	-2094
歌	-2095
灣	-2096
珉	-2097
珠	-2098
盛	-2099
監	-2100
祿	-2101
禪	-2102
秉	-2103
章	-2104
紅	-2105
網	-2106
翰	-2107
耳	-2108
能	-2109
菅	-2110
藥	-2111
蘇	-2112
術	-2113
覺	-2114
記	-2115
賞	-2116
赫	-2117
通	-2118
遠	-2119
醫	-2120
陸	-2121
青	-2122
音	-2123
首	-2124
＞	-2125
¤	-2126
»	-2127
Ç	-2128
È	-2129
Í	-2130
Î	-2131
Ï	-2132
ì	-2133
÷	-2134
Đ	-2135
ī	-2136
ł	-2137
ε	-2138
λ	-2139
υ	-2140
В	-2141
Г	-2142
д	-2143
أ	-2144
ط	-2145
Ῥ	-2146
‬	-2147
Ⓐ	-2148
⟪	-2149
⟫	-2150
ぶ	-2151
ド	-2152
ラ	-2153
リ	-2154
ㅐ	-2155
ㅓ	-2156
㎉	-2157
㎎	-2158
丸	-2159
丹	-2160
乃	-2161
于	-2162
休	-2163
傳	-2164
兩	-2165
兪	-2166
内	-2167
再	-2168
副	-2169
劍	-2170
助	-2171
動	-2172
勝	-2173
卒	-2174
卿	-2175
友	-2176
咸	-2177
員	-2178
啓	-2179
嘉	-2180
培	-2181
姓	-2182
字	-2183
客	-2184
希	-2185
度	-2186
廣	-2187
弟	-2188
彬	-2189
徳	-2190
徽	-2191
恒	-2192
惡	-2193
才	-2194
持	-2195
旅	-2196
昇	-2197
易	-2198
条	-2199
森	-2200
殷	-2201
洋	-2202
洞	-2203
津	-2204
淵	-2205
準	-2206
燕	-2207
爭	-2208
物	-2209
特	-2210
用	-2211
病	-2212
的	-2213
督	-2214
祚	-2215
禍	-2216
約	-2217
純	-2218
結	-2219
總	-2220
聲	-2221
胡	-2222
舒	-2223
蘭	-2224
血	-2225
觀	-2226
解	-2227
訓	-2228
試	-2229
諸	-2230
謙	-2231
警	-2232
輝	-2233
造	-2234
連	-2235
陰	-2236
頼	-2237
食	-2238
驛	-2239
马	-2240
骨	-2241
魚	-2242
盧	-2243
	-2244
ă	-2245
Č	-2246
ė	-2247
ņ	-2248
ά	-2249
κ	-2250
π	-2251
χ	-2252
А	-2253
Р	-2254
б	-2255
з	-2256
я	-2257
إ	-2258
ج	-2259
ệ	-2260
⁻	-2261
√	-2262
⋅	-2263
☏	-2264
け	-2265
じ	-2266
ず	-2267
ば	-2268
め	-2269
や	-2270
ょ	-2271
イ	-2272
カ	-2273
シ	-2274
レ	-2275
ㅍ	-2276
亂	-2277
仇	-2278
仲	-2279
侍	-2280
備	-2281
像	-2282
儒	-2283
允	-2284
入	-2285
兼	-2286
刊	-2287
刑	-2288
刺	-2289
加	-2290
務	-2291
勢	-2292
匡	-2293
卞	-2294
告	-2295
喪	-2296
單	-2297
嚴	-2298
固	-2299
国	-2300
圖	-2301
塔	-2302
央	-2303
失	-2304
威	-2305
娥	-2306
学	-2307
寒	-2308
尊	-2309
岡	-2310
巖	-2311
差	-2312
庚	-2313
庶	-2314
廟	-2315
弼	-2316
形	-2317
得	-2318
微	-2319
悳	-2320
想	-2321
戦	-2322
手	-2323
收	-2324
敦	-2325
斷	-2326
旨	-2327
映	-2328
曹	-2329
末	-2330
査	-2331
桑	-2332
極	-2333
欽	-2334
母	-2335
求	-2336
滋	-2337
滿	-2338
潤	-2339
澈	-2340
炫	-2341
燁	-2342
燈	-2343
營	-2344
燦	-2345
琪	-2346
瑜	-2347
町	-2348
癌	-2349
皮	-2350
碑	-2351
祥	-2352
究	-2353
策	-2354
米	-2355
紀	-2356
素	-2357
組	-2358
維	-2359
育	-2360
舍	-2361
葬	-2362
蔡	-2363
虎	-2364
虛	-2365
裕	-2366
裵	-2367
訪	-2368
話	-2369
護	-2370
變	-2371
讓	-2372
辛	-2373
農	-2374
運	-2375
選	-2376
邊	-2377
鄕	-2378
釋	-2379
銅	-2380
鐘	-2381
際	-2382
需	-2383
靈	-2384
靖	-2385
領	-2386
體	-2387
魯	-2388
鴻	-2389
鶴	-2390
黑	-2391
齋	-2392
꒪	-2393
ﬁ	-2394
，	-2395
－	-2396
？	-2397
Ｓ	-2398
	-2399
	-2400
	-2401
	-2402
¬	-2403
¸	-2404
Ë	-2405
Û	-2406
Þ	-2407
ý	-2408
Ā	-2409
ń	-2410
ň	-2411
ž	-2412
ˈ	-2413
θ	-2414
Ж	-2415
М	-2416
П	-2417
Ц	-2418
Ю	-2419
п	-2420
х	-2421
ы	-2422
خ	-2423
ق	-2424
ى	-2425
द	-2426
म	-2427
ố	-2428
ῶ	-2429
″	-2430
₂	-2431
↗	-2432
∞	-2433
⑦	-2434
⑨	-2435
⑩	-2436
☆	-2437
⸱	-2438
、	-2439
せ	-2440
ひ	-2441
び	-2442
ふ	-2443
へ	-2444
べ	-2445
ゆ	-2446
ア	-2447
ウ	-2448
ガ	-2449
ク	-2450
ズ	-2451
タ	-2452
ャ	-2453
ㅌ	-2454
ㅛ	-2455
㎒	-2456
丙	-2457
久	-2458
乳	-2459
交	-2460
他	-2461
傑	-2462
兢	-2463
冬	-2464
勞	-2465
半	-2466
參	-2467
可	-2468
呂	-2469
哥	-2470
問	-2471
器	-2472
坊	-2473
坤	-2474
埈	-2475
墓	-2476
墨	-2477
夜	-2478
夢	-2479
奭	-2480
好	-2481
如	-2482
姸	-2483
娘	-2484
娜	-2485
媛	-2486
孔	-2487
宿	-2488
寔	-2489
察	-2490
寬	-2491
尾	-2492
居	-2493
岸	-2494
峰	-2495
崎	-2496
巨	-2497
幕	-2498
幸	-2499
广	-2500
広	-2501
店	-2502
庫	-2503
弓	-2504
彰	-2505
征	-2506
必	-2507
慕	-2508
救	-2509
敗	-2510
敵	-2511
旦	-2512
昆	-2513
昶	-2514
晉	-2515
晩	-2516
朗	-2517
枝	-2518
構	-2519
樞	-2520
橋	-2521
次	-2522
欲	-2523
步	-2524
段	-2525
殼	-2526
毒	-2527
汎	-2528
浜	-2529
淇	-2530
深	-2531
淳	-2532
渠	-2533
溥	-2534
烏	-2535
然	-2536
煉	-2537
熊	-2538
爾	-2539
牟	-2540
犬	-2541
獄	-2542
獅	-2543
瑛	-2544
瑞	-2545
畵	-2546
畿	-2547
盟	-2548
真	-2549
祉	-2550
祐	-2551
禁	-2552
秦	-2553
端	-2554
符	-2555
筵	-2556
紋	-2557
紫	-2558
緖	-2559
署	-2560
肖	-2561
臨	-2562
至	-2563
航	-2564
茂	-2565
莊	-2566
蓮	-2567
蔣	-2568
薛	-2569
藏	-2570
處	-2571
衡	-2572
角	-2573
言	-2574
訴	-2575
誰	-2576
謝	-2577
謨	-2578
財	-2579
質	-2580
贊	-2581
足	-2582
躍	-2583
輔	-2584
輪	-2585
辰	-2586
述	-2587
邦	-2588
邱	-2589
邸	-2590
郞	-2591
鎔	-2592
鎰	-2593
間	-2594
閣	-2595
降	-2596
陣	-2597
隊	-2598
雅	-2599
離	-2600
雨	-2601
雪	-2602
雷	-2603
震	-2604
願	-2605
飯	-2606
鬪	-2607
麟	-2608
黒	-2609
羅	-2610
．	-2611
／	-2612
	-2613
	-2614
	-2615
	-2616
«	-2617
Æ	-2618
Ñ	-2619
Ø	-2620
Ü	-2621
ù	-2622
ğ	-2623
İ	-2624
œ	-2625
Ś	-2626
Ş	-2627
ū	-2628
ŭ	-2629
ȏ	-2630
ʒ	-2631
˘	-2632
˹	-2633
˼	-2634
́	-2635
Α	-2636
Β	-2637
Μ	-2638
Π	-2639
δ	-2640
σ	-2641
ό	-2642
ύ	-2643
И	-2644
К	-2645
Л	-2646
Т	-2647
ь	-2648
א	-2649
ר	-2650
،	-2651
ث	-2652
ز	-2653
غ	-2654
ब	-2655
र	-2656
ह	-2657
ी	-2658
ु	-2659
्	-2660
⁴	-2661
⁵	-2662
™	-2663
⅗	-2664
⅙	-2665
Ⅳ	-2666
∕	-2667
∣	-2668
≤	-2669
⑫	-2670
ⓑ	-2671
▒	-2672
◆	-2673
☻	-2674
々	-2675
ざ	-2676
ね	-2677
ほ	-2678
む	-2679
ろ	-2680
ィ	-2681
オ	-2682
ギ	-2683
グ	-2684
コ	-2685
サ	-2686
ジ	-2687
テ	-2688
ト	-2689
ナ	-2690
ネ	-2691
ノ	-2692
ビ	-2693
フ	-2694
プ	-2695
ベ	-2696
ミ	-2697
ュ	-2698
ヶ	-2699
ㄲ	-2700
㎛	-2701
㎿	-2702
㏄	-2703
丕	-2704
丞	-2705
乐	-2706
了	-2707
亡	-2708
亭	-2709
件	-2710
伐	-2711
伸	-2712
住	-2713
佩	-2714
佳	-2715
便	-2716
倉	-2717
假	-2718
停	-2719
債	-2720
傷	-2721
億	-2722
充	-2723
兌	-2724
免	-2725
党	-2726
典	-2727
农	-2728
刀	-2729
列	-2730
判	-2731
到	-2732
剛	-2733
功	-2734
勸	-2735
叔	-2736
只	-2737
味	-2738
咨	-2739
喆	-2740
嗣	-2741
回	-2742
因	-2743
址	-2744
坂	-2745
坪	-2746
域	-2747
執	-2748
堯	-2749
増	-2750
壁	-2751
壹	-2752
奏	-2753
奧	-2754
妙	-2755
妻	-2756
姑	-2757
姫	-2758
婦	-2759
実	-2760
審	-2761
寫	-2762
尉	-2763
尤	-2764
屋	-2765
履	-2766
屯	-2767
峨	-2768
左	-2769
己	-2770
席	-2771
幡	-2772
干	-2773
庭	-2774
庾	-2775
廢	-2776
当	-2777
律	-2778
忌	-2779
応	-2780
快	-2781
恨	-2782
惇	-2783
意	-2784
愚	-2785
愿	-2786
慎	-2787
慘	-2788
憬	-2789
懷	-2790
戶	-2791
房	-2792
打	-2793
投	-2794
抗	-2795
报	-2796
拉	-2797
拔	-2798
指	-2799
措	-2800
提	-2801
搜	-2802
攻	-2803
整	-2804
數	-2805
斌	-2806
斎	-2807
料	-2808
斯	-2809
施	-2810
旗	-2811
旭	-2812
旻	-2813
旽	-2814
昊	-2815
昏	-2816
是	-2817
昰	-2818
昱	-2819
晙	-2820
普	-2821
晶	-2822
曄	-2823
曾	-2824
朋	-2825
服	-2826
杓	-2827
枯	-2828
架	-2829
柔	-2830
栄	-2831
栖	-2832
格	-2833
梅	-2834
條	-2835
梨	-2836
楽	-2837
樺	-2838
歷	-2839
歸	-2840
氷	-2841
沔	-2842
沢	-2843
沿	-2844
泥	-2845
洹	-2846
活	-2847
浙	-2848
消	-2849
涉	-2850
淮	-2851
渡	-2852
渤	-2853
湯	-2854
溪	-2855
滴	-2856
漆	-2857
演	-2858
潽	-2859
澄	-2860
澮	-2861
濤	-2862
濬	-2863
灌	-2864
炅	-2865
煕	-2866
片	-2867
牙	-2868
牛	-2869
狀	-2870
猪	-2871
琛	-2872
琯	-2873
瑪	-2874
璨	-2875
瓦	-2876
甄	-2877
留	-2878
異	-2879
眉	-2880
睦	-2881
瞳	-2882
短	-2883
破	-2884
祭	-2885
禧	-2886
禮	-2887
稷	-2888
穎	-2889
穗	-2890
突	-2891
童	-2892
笑	-2893
等	-2894
筑	-2895
精	-2896
紙	-2897
級	-2898
絶	-2899
綱	-2900
綾	-2901
練	-2902
置	-2903
羲	-2904
翊	-2905
翼	-2906
耀	-2907
考	-2908
而	-2909
耘	-2910
聞	-2911
聰	-2912
肅	-2913
肥	-2914
臂	-2915
若	-2916
范	-2917
茶	-2918
草	-2919
莫	-2920
菜	-2921
菩	-2922
蔚	-2923
蕭	-2924
薄	-2925
薩	-2926
薰	-2927
藝	-2928
袁	-2929
被	-2930
裔	-2931
複	-2932
規	-2933
計	-2934
評	-2935
語	-2936
誤	-2937
誼	-2938
調	-2939
諫	-2940
譚	-2941
讀	-2942
让	-2943
象	-2944
貫	-2945
貸	-2946
貿	-2947
賣	-2948
赤	-2949
赵	-2950
軾	-2951
輯	-2952
轉	-2953
辭	-2954
迦	-2955
速	-2956
逢	-2957
週	-2958
逸	-2959
違	-2960
遷	-2961
遺	-2962
遼	-2963
那	-2964
郁	-2965
量	-2966
鈴	-2967
銓	-2968
錢	-2969
鎌	-2970
閉	-2971
閼	-2972
陀	-2973
限	-2974
陶	-2975
隋	-2976
階	-2977
難	-2978
露	-2979
靜	-2980
面	-2981
韋	-2982
頭	-2983
額	-2984
飛	-2985
養	-2986
馨	-2987
馮	-2988
駿	-2989
驥	-2990
魔	-2991
鷄	-2992
鹿	-2993
鼎	-2994
齊	-2995
樂	-2996
！	-2997
＊	-2998
￡	-2999
	-3000
	-3001
	-3002
	-3003
	-3004
	-3005
	-3006
	-3007
	-3008
	-3009
	-3010
	-3011
¥	-3012
Ù	-3013
ð	-3014
ě	-3015
ĭ	-3016
ļ	-3017
ř	-3018
Ţ	-3019
ź	-3020
ơ	-3021
ư	-3022
Ǧ	-3023
ț	-3024
ȳ	-3025
ɒ	-3026
ɪ	-3027
ɾ	-3028
ʁ	-3029
ʿ	-3030
·	-3031
ΐ	-3032
Γ	-3033
Δ	-3034
Ε	-3035
Ζ	-3036
Θ	-3037
Κ	-3038
Ο	-3039
Τ	-3040
έ	-3041
β	-3042
γ	-3043
І	-3044
Б	-3045
О	-3046
У	-3047
Х	-3048
Ч	-3049
ж	-3050
ш	-3051
ъ	-3052
э	-3053
ю	-3054
ё	-3055
ї	-3056
њ	-3057
ћ	-3058
Ӳ	-3059
ؤ	-3060
ذ	-3061
ظ	-3062
ڤ	-3063
ہ	-3064
ज	-3065
न	-3066
़	-3067
ा	-3068
ᄀ	-3069
ᄂ	-3070
ላ	-3071
መ	-3072
ር	-3073
ና	-3074
ኔ	-3075
ን	-3076
ኪ	-3077
ዘ	-3078
ድ	-3079
ḥ	-3080
ṛ	-3081
ạ	-3082
ả	-3083
ầ	-3084
ậ	-3085
ề	-3086
ễ	-3087
ọ	-3088
ồ	-3089
ộ	-3090
ợ	-3091
„	-3092
‡	-3093
⁺	-3094
₣	-3095
₪	-3096
₫	-3097
↘	-3098
−	-3099
∥	-3100
≒	-3101
⌜	-3102
⌟	-3103
⑬	-3104
⑭	-3105
⑮	-3106
□	-3107
▼	-3108
▽	-3109
⧠	-3110
〓	-3111
〮	-3112
ぎ	-3113
ぬ	-3114
ゥ	-3115
ェ	-3116
キ	-3117
ケ	-3118
ゲ	-3119
ソ	-3120
ダ	-3121
チ	-3122
ニ	-3123
バ	-3124
ブ	-3125
ホ	-3126
ボ	-3127
マ	-3128
メ	-3129
ユ	-3130
ョ	-3131
ヨ	-3132
ㄸ	-3133
ㄺ	-3134
ㅄ	-3135
ㅉ	-3136
ㅕ	-3137
ㅗ	-3138
㈔	-3139
㎃	-3140
㎠	-3141
㫕	-3142
䄄	-3143
䄙	-3144
並	-3145
乏	-3146
乘	-3147
亜	-3148
仏	-3149
以	-3150
仰	-3151
位	-3152
何	-3153
依	-3154
侮	-3155
侵	-3156
俁	-3157
促	-3158
俗	-3159
俺	-3160
倂	-3161
倒	-3162
倡	-3163
倭	-3164
傅	-3165
僉	-3166
僖	-3167
僞	-3168
僻	-3169
儁	-3170
儇	-3171
儉	-3172
兎	-3173
冉	-3174
冊	-3175
冒	-3176
军	-3177
冷	-3178
冽	-3179
凝	-3180
凱	-3181
刘	-3182
刻	-3183
則	-3184
剖	-3185
割	-3186
劇	-3187
労	-3188
勉	-3189
勒	-3190
勤	-3191
勾	-3192
匠	-3193
匹	-3194
区	-3195
午	-3196
卍	-3197
卓	-3198
卜	-3199
卫	-3200
却	-3201
厓	-3202
厚	-3203
厦	-3204
厭	-3205
参	-3206
双	-3207
取	-3208
受	-3209
口	-3210
句	-3211
吊	-3212
吏	-3213
向	-3214
含	-3215
吾	-3216
呑	-3217
呪	-3218
咲	-3219
哀	-3220
哉	-3221
喘	-3222
喬	-3223
嘆	-3224
团	-3225
圃	-3226
圈	-3227
圳	-3228
坐	-3229
坧	-3230
垂	-3231
型	-3232
垓	-3233
垠	-3234
堤	-3235
堪	-3236
塢	-3237
塾	-3238
境	-3239
壄	-3240
壤	-3241
声	-3242
変	-3243
复	-3244
奈	-3245
奔	-3246
奥	-3247
奴	-3248
妥	-3249
姙	-3250
姦	-3251
姪	-3252
婁	-3253
嫡	-3254
嫦	-3255
孕	-3256
存	-3257
孚	-3258
季	-3259
宅	-3260
宏	-3261
宝	-3262
宥	-3263
害	-3264
寅	-3265
寛	-3266
寢	-3267
寿	-3268
封	-3269
将	-3270
專	-3271
導	-3272
尔	-3273
尚	-3274
就	-3275
尺	-3276
届	-3277
屍	-3278
屠	-3279
屬	-3280
岩	-3281
岭	-3282
峻	-3283
峽	-3284
崗	-3285
嵋	-3286
嵐	-3287
巳	-3288
巾	-3289
布	-3290
师	-3291
帖	-3292
帥	-3293
帳	-3294
常	-3295
幹	-3296
幽	-3297
幾	-3298
庁	-3299
庄	-3300
庵	-3301
庸	-3302
廉	-3303
弔	-3304
彈	-3305
彌	-3306
彙	-3307
彛	-3308
彠	-3309
彩	-3310
彫	-3311
彭	-3312
彼	-3313
待	-3314
徵	-3315
徹	-3316
忍	-3317
忘	-3318
念	-3319
急	-3320
怨	-3321
怪	-3322
恋	-3323
息	-3324
悊	-3325
悌	-3326
悟	-3327
悤	-3328
悪	-3329
悲	-3330
悼	-3331
惟	-3332
惱	-3333
愍	-3334
慜	-3335
懌	-3336
懽	-3337
戚	-3338
戴	-3339
戸	-3340
抑	-3341
抱	-3342
招	-3343
拜	-3344
拡	-3345
括	-3346
拳	-3347
捷	-3348
推	-3349
掾	-3350
援	-3351
摩	-3352
撫	-3353
播	-3354
據	-3355
擧	-3356
攝	-3357
效	-3358
敍	-3359
敞	-3360
散	-3361
数	-3362
敷	-3363
斑	-3364
斬	-3365
於	-3366
旋	-3367
旌	-3368
早	-3369
旺	-3370
旼	-3371
旿	-3372
昔	-3373
昕	-3374
昴	-3375
晥	-3376
晨	-3377
晳	-3378
暋	-3379
暗	-3380
暦	-3381
暻	-3382
曆	-3383
曉	-3384
曙	-3385
曰	-3386
曲	-3387
更	-3388
朔	-3389
望	-3390
杭	-3391
杯	-3392
杰	-3393
析	-3394
枓	-3395
柏	-3396
栃	-3397
栗	-3398
桐	-3399
梓	-3400
梪	-3401
梵	-3402
棟	-3403
棣	-3404
棺	-3405
検	-3406
椵	-3407
楚	-3408
楢	-3409
楨	-3410
榕	-3411
榴	-3412
槿	-3413
樊	-3414
樓	-3415
権	-3416
歩	-3417
殊	-3418
殘	-3419
殤	-3420
殿	-3421
每	-3422
気	-3423
汕	-3424
汗	-3425
汝	-3426
決	-3427
沂	-3428
沃	-3429
沓	-3430
沛	-3431
沫	-3432
沸	-3433
泣	-3434
注	-3435
泫	-3436
洗	-3437
洛	-3438
洱	-3439
洵	-3440
浅	-3441
浚	-3442
涓	-3443
淘	-3444
淡	-3445
淨	-3446
渋	-3447
渕	-3448
渙	-3449
渚	-3450
温	-3451
渰	-3452
湘	-3453
湧	-3454
満	-3455
溱	-3456
溶	-3457
溷	-3458
滎	-3459
漁	-3460
漑	-3461
漕	-3462
漠	-3463
漱	-3464
漸	-3465
潛	-3466
潟	-3467
澂	-3468
澠	-3469
澯	-3470
濱	-3471
瀨	-3472
災	-3473
炯	-3474
烘	-3475
焄	-3476
焰	-3477
煎	-3478
煐	-3479
煙	-3480
煜	-3481
煦	-3482
煩	-3483
煬	-3484
熱	-3485
爵	-3486
版	-3487
牧	-3488
状	-3489
狂	-3490
狐	-3491
狩	-3492
猫	-3493
猶	-3494
獲	-3495
獺	-3496
珅	-3497
珥	-3498
琨	-3499
琴	-3500
瑅	-3501
瑗	-3502
瑟	-3503
瑤	-3504
瑭	-3505
璄	-3506
璘	-3507
璜	-3508
璟	-3509
璡	-3510
環	-3511
璿	-3512
电	-3513
畜	-3514
番	-3515
畯	-3516
疆	-3517
疏	-3518
疑	-3519
痛	-3520
療	-3521
発	-3522
登	-3523
皓	-3524
眼	-3525
睛	-3526
睡	-3527
睿	-3528
瞻	-3529
研	-3530
硬	-3531
碎	-3532
碧	-3533
磾	-3534
礪	-3535
礼	-3536
祇	-3537
祠	-3538
票	-3539
禎	-3540
禔	-3541
禦	-3542
禰	-3543
禳	-3544
禶	-3545
秘	-3546
程	-3547
種	-3548
稱	-3549
稿	-3550
穆	-3551
積	-3552
穡	-3553
穴	-3554
窓	-3555
窩	-3556
竇	-3557
競	-3558
笠	-3559
筆	-3560
答	-3561
箕	-3562
管	-3563
篆	-3564
築	-3565
簫	-3566
簾	-3567
籍	-3568
粒	-3569
粗	-3570
粤	-3571
系	-3572
糿	-3573
紡	-3574
索	-3575
細	-3576
紹	-3577
絃	-3578
絡	-3579
給	-3580
綎	-3581
継	-3582
綠	-3583
緑	-3584
緣	-3585
繼	-3586
續	-3587
结	-3588
维	-3589
网	-3590
羊	-3591
羽	-3592
翔	-3593
耆	-3594
耐	-3595
耕	-3596
耿	-3597
職	-3598
聿	-3599
肝	-3600
肩	-3601
背	-3602
胚	-3603
胜	-3604
胤	-3605
胸	-3606
脚	-3607
脩	-3608
膏	-3609
膝	-3610
膳	-3611
臧	-3612
艾	-3613
芝	-3614
芥	-3615
芳	-3616
苔	-3617
苞	-3618
苦	-3619
苩	-3620
荃	-3621
荒	-3622
荷	-3623
莉	-3624
莎	-3625
莢	-3626
菊	-3627
菱	-3628
菴	-3629
萱	-3630
葆	-3631
著	-3632
董	-3633
蒼	-3634
蓄	-3635
蓉	-3636
蔘	-3637
蕃	-3638
薨	-3639
藎	-3640
藩	-3641
藪	-3642
藻	-3643
虹	-3644
蛙	-3645
蜀	-3646
蜂	-3647
融	-3648
蟬	-3649
衍	-3650
衙	-3651
衞	-3652
衣	-3653
表	-3654
衿	-3655
裁	-3656
裶	-3657
褒	-3658
襲	-3659
要	-3660
視	-3661
覚	-3662
视	-3663
訥	-3664
訳	-3665
詢	-3666
誌	-3667
認	-3668
誓	-3669
誘	-3670
課	-3671
諧	-3672
諮	-3673
諱	-3674
謀	-3675
講	-3676
謠	-3677
譙	-3678
譽	-3679
讯	-3680
豆	-3681
豐	-3682
豪	-3683
豫	-3684
貌	-3685
貢	-3686
貪	-3687
買	-3688
貼	-3689
賀	-3690
賜	-3691
賤	-3692
購	-3693
贈	-3694
贝	-3695
越	-3696
跱	-3697
軫	-3698
輓	-3699
輕	-3700
輿	-3701
辨	-3702
辯	-3703
辺	-3704
迪	-3705
追	-3706
逅	-3707
选	-3708
逵	-3709
遇	-3710
遊	-3711
遙	-3712
遣	-3713
邂	-3714
還	-3715
邏	-3716
邑	-3717
邕	-3718
邙	-3719
邪	-3720
郵	-3721
鄒	-3722
鄜	-3723
鄧	-3724
鄴	-3725
醍	-3726
醐	-3727
采	-3728
釜	-3729
釩	-3730
鈞	-3731
鉄	-3732
鉗	-3733
銘	-3734
銳	-3735
鋥	-3736
鋼	-3737
錄	-3738
錘	-3739
鍊	-3740
鍵	-3741
鍼	-3742
鎮	-3743
鏞	-3744
鏡	-3745
鐸	-3746
鑑	-3747
鑴	-3748
钦	-3749
钧	-3750
閏	-3751
閑	-3752
閘	-3753
関	-3754
閥	-3755
閩	-3756
閭	-3757
閻	-3758
闊	-3759
闖	-3760
關	-3761
闡	-3762
门	-3763
闻	-3764
阪	-3765
阮	-3766
际	-3767
陜	-3768
陝	-3769
陞	-3770
隕	-3771
隣	-3772
隨	-3773
險	-3774
隱	-3775
雁	-3776
雇	-3777
雩	-3778
靡	-3779
韶	-3780
響	-3781
項	-3782
顔	-3783
顕	-3784
顥	-3785
顾	-3786
飮	-3787
餘	-3788
駉	-3789
駒	-3790
騎	-3791
騰	-3792
驅	-3793
驪	-3794
骅	-3795
骐	-3796
骥	-3797
鬱	-3798
魂	-3799
魅	-3800
魏	-3801
鰲	-3802
鴨	-3803
鵞	-3804
麥	-3805
黎	-3806
默	-3807
黜	-3808
點	-3809
齡	-3810
龐	-3811
龕	-3812
龜	-3813
	-3814
樂	-3815
蘭	-3816
狼	-3817
來	-3818
綠	-3819
不	-3820
兩	-3821
梁	-3822
旅	-3823
年	-3824
龍	-3825
輪	-3826
吏	-3827
梨	-3828
泥	-3829
茶	-3830
＇	-3831
１	-3832
Ｆ	-3833
𑀕	-3834
𑀥	-3835
𑀫	-3836
